Gfx heavy_weight__50tons_i4_aligner[] = {gsSPEndDisplayList()};
u8 heavy_weight__50tons_i4[] = {
	0x00, 0x00, 0x00, 0x00, 0x00, 0x00, 0x00, 0x00, 
	0x00, 0x00, 0x00, 0x00, 0x00, 0x00, 0x00, 0x00, 
	0x00, 0x00, 0x00, 0x00, 0x00, 0x00, 0x00, 0x00, 
	0x00, 0x00, 0x00, 0x00, 0x00, 0x00, 0x00, 0x00, 
	0x00, 0x00, 0x00, 0x00, 0x00, 0x00, 0x00, 0x00, 
	0x00, 0x00, 0x00, 0x00, 0x00, 0x00, 0x00, 0x00, 
	0x00, 0x00, 0x00, 0x00, 0x00, 0x00, 0x00, 0x00, 
	0x00, 0x00, 0x00, 0x00, 0x00, 0x00, 0x00, 0x00, 
	0x00, 0x00, 0x00, 0x00, 0x00, 0x00, 0x00, 0x00, 
	0x00, 0x00, 0x00, 0x00, 0x00, 0x00, 0x00, 0x00, 
	0x00, 0x00, 0x00, 0x00, 0x00, 0x00, 0x00, 0x00, 
	0x00, 0x00, 0x00, 0x00, 0x00, 0x00, 0x00, 0x00, 
	0x00, 0x00, 0x00, 0x00, 0x00, 0x00, 0x00, 0x00, 
	0x00, 0x00, 0x00, 0x00, 0x00, 0x00, 0x00, 0x00, 
	0x00, 0x00, 0x00, 0x00, 0x00, 0x00, 0x00, 0x00, 
	0x00, 0x00, 0x00, 0x00, 0x00, 0x00, 0x00, 0x00, 
	0x00, 0x00, 0x00, 0x00, 0x00, 0x00, 0x00, 0x00, 
	0x00, 0x00, 0x00, 0x00, 0x00, 0x00, 0x00, 0x00, 
	0x00, 0x00, 0x00, 0x00, 0x00, 0x00, 0x00, 0x00, 
	0x00, 0x00, 0x00, 0x00, 0x00, 0x00, 0x00, 0x00, 
	0x00, 0x00, 0x00, 0x00, 0x00, 0x00, 0x00, 0x00, 
	0x00, 0x00, 0x00, 0x00, 0x00, 0x00, 0x00, 0x00, 
	0x00, 0x00, 0x00, 0x00, 0x00, 0x00, 0x00, 0x00, 
	0x00, 0x00, 0x00, 0x00, 0x00, 0x00, 0x00, 0x00, 
	0x00, 0x00, 0x00, 0x00, 0x00, 0x00, 0x00, 0x00, 
	0x00, 0x00, 0x00, 0x00, 0x00, 0x00, 0x00, 0x00, 
	0x00, 0x00, 0x00, 0x00, 0x00, 0x00, 0x00, 0x00, 
	0x00, 0x00, 0x00, 0x00, 0x00, 0x00, 0x00, 0x00, 
	0x00, 0x00, 0x00, 0x00, 0x00, 0x00, 0x00, 0x00, 
	0x00, 0x00, 0x00, 0x00, 0x00, 0x00, 0x00, 0x00, 
	0x00, 0x00, 0x00, 0x00, 0x00, 0x00, 0x00, 0x00, 
	0x00, 0x00, 0x00, 0x00, 0x00, 0x00, 0x00, 0x00, 
	0x00, 0x00, 0x00, 0x00, 0x00, 0x00, 0x00, 0x00, 
	0x00, 0x00, 0x00, 0x00, 0x00, 0x00, 0x00, 0x00, 
	0x00, 0x00, 0x00, 0x00, 0x00, 0x00, 0x00, 0x00, 
	0x00, 0x00, 0x00, 0x00, 0x00, 0x00, 0x00, 0x00, 
	0x00, 0x00, 0x00, 0x00, 0x00, 0x00, 0x00, 0x00, 
	0x00, 0x00, 0x00, 0x00, 0x00, 0x00, 0x00, 0x00, 
	0x00, 0x00, 0x00, 0x00, 0x00, 0x00, 0x00, 0x00, 
	0x00, 0x00, 0x00, 0x00, 0x00, 0x00, 0x00, 0x00, 
	0x00, 0x00, 0x00, 0x00, 0x00, 0x00, 0x00, 0x00, 
	0x00, 0x00, 0x00, 0x00, 0x00, 0x00, 0x00, 0x00, 
	0x00, 0x00, 0x00, 0x00, 0x00, 0x00, 0x00, 0x00, 
	0x00, 0x00, 0x00, 0x00, 0x00, 0x00, 0x00, 0x00, 
	0x00, 0x00, 0x00, 0x00, 0x00, 0x00, 0x00, 0x00, 
	0x00, 0x00, 0x00, 0x00, 0x00, 0x00, 0x00, 0x00, 
	0x00, 0x00, 0x00, 0x00, 0x00, 0x00, 0x00, 0x00, 
	0x00, 0x00, 0x00, 0x00, 0x00, 0x00, 0x00, 0x00, 
	0x00, 0x00, 0x00, 0x00, 0x00, 0x00, 0x00, 0x00, 
	0x00, 0x00, 0x00, 0x00, 0x00, 0x32, 0x21, 0x00, 
	0x00, 0x00, 0x00, 0x00, 0x00, 0x00, 0x00, 0x00, 
	0x00, 0x04, 0x20, 0x00, 0x00, 0x00, 0x00, 0x00, 
	0x00, 0x00, 0x00, 0x00, 0x42, 0x00, 0x00, 0x00, 
	0x00, 0x00, 0x00, 0x00, 0x00, 0x00, 0x04, 0x20, 
	0x00, 0x00, 0x00, 0x00, 0x00, 0x00, 0x00, 0x00, 
	0x00, 0x00, 0x00, 0x00, 0x00, 0x00, 0x00, 0x00, 
	0x00, 0x00, 0x00, 0x00, 0x00, 0x00, 0x00, 0x00, 
	0x00, 0x00, 0x00, 0x00, 0x00, 0xaf, 0xff, 0xff, 
	0xa8, 0x84, 0x43, 0x22, 0x00, 0x00, 0x00, 0x00, 
	0x01, 0xdf, 0xff, 0x84, 0x20, 0x00, 0x00, 0x00, 
	0x00, 0x00, 0x00, 0x1a, 0xff, 0xf8, 0x42, 0x00, 
	0x00, 0x00, 0x00, 0x00, 0x00, 0x00, 0xaf, 0xff, 
	0x84, 0x20, 0x00, 0x00, 0x00, 0x00, 0x00, 0x00, 
	0x00, 0x00, 0x00, 0x00, 0x00, 0x00, 0x00, 0x00, 
	0x00, 0x00, 0x00, 0x00, 0x00, 0x00, 0x00, 0x00, 
	0x00, 0x00, 0x00, 0x00, 0x00, 0xff, 0xff, 0xff, 
	0xff, 0xff, 0xff, 0xff, 0xff, 0x30, 0x00, 0x00, 
	0x1d, 0xff, 0xff, 0xff, 0xff, 0x84, 0x10, 0x00, 
	0x00, 0x00, 0x01, 0xdf, 0xff, 0xff, 0xff, 0xf8, 
	0x41, 0x00, 0x00, 0x00, 0x00, 0x1a, 0xff, 0xff, 
	0xff, 0xff, 0x84, 0x10, 0x00, 0x00, 0x00, 0x00, 
	0x00, 0x00, 0x00, 0x00, 0x00, 0x00, 0x00, 0x00, 
	0x00, 0x00, 0x00, 0x00, 0x00, 0x00, 0x00, 0x00, 
	0x00, 0x00, 0x00, 0x00, 0x02, 0xff, 0xff, 0xff, 
	0xff, 0xff, 0xff, 0xff, 0xff, 0x10, 0x00, 0x03, 
	0xdf, 0xff, 0xff, 0xff, 0xff, 0xff, 0xb0, 0x00, 
	0x00, 0x00, 0x1d, 0xff, 0xff, 0xff, 0xff, 0xff, 
	0xfd, 0x00, 0x00, 0x00, 0x01, 0xdf, 0xff, 0xff, 
	0xff, 0xff, 0xff, 0xf0, 0x00, 0x00, 0x00, 0x00, 
	0x00, 0x00, 0x00, 0x00, 0x00, 0x00, 0x00, 0x00, 
	0x00, 0x00, 0x00, 0x00, 0x00, 0x00, 0x00, 0x00, 
	0x00, 0x00, 0x00, 0x00, 0x04, 0xff, 0xff, 0xff, 
	0xff, 0xff, 0xff, 0xff, 0xfb, 0x00, 0x00, 0x3f, 
	0xff, 0xff, 0xff, 0xff, 0xff, 0xff, 0xf2, 0x00, 
	0x00, 0x03, 0xff, 0xff, 0xff, 0xff, 0xff, 0xff, 
	0xff, 0x30, 0x00, 0x00, 0x2d, 0xff, 0xff, 0xff, 
	0xff, 0xff, 0xff, 0xf4, 0x00, 0x00, 0x00, 0x00, 
	0x00, 0x00, 0x00, 0x00, 0x00, 0x00, 0x00, 0x00, 
	0x00, 0x00, 0x00, 0x00, 0x00, 0x00, 0x00, 0x00, 
	0x00, 0x00, 0x00, 0x00, 0x08, 0xff, 0xff, 0xff, 
	0xff, 0xff, 0xff, 0xff, 0xf5, 0x00, 0x04, 0xff, 
	0xff, 0xff, 0xff, 0xff, 0xff, 0xff, 0xf7, 0x00, 
	0x00, 0x3f, 0xff, 0xff, 0xff, 0xff, 0xff, 0xff, 
	0xff, 0xa0, 0x00, 0x03, 0xff, 0xff, 0xff, 0xff, 
	0xff, 0xff, 0xff, 0xfb, 0x00, 0x00, 0x00, 0x00, 
	0x00, 0x00, 0x00, 0x00, 0x00, 0x00, 0x00, 0x00, 
	0x00, 0x00, 0x00, 0x00, 0x00, 0x00, 0x00, 0x00, 
	0x00, 0x00, 0x00, 0x00, 0x0d, 0xff, 0xff, 0xff, 
	0xff, 0xff, 0xff, 0xff, 0xf2, 0x00, 0x6f, 0xff, 
	0xff, 0xff, 0xff, 0xff, 0xff, 0xff, 0xff, 0x10, 
	0x05, 0xff, 0xff, 0xff, 0xff, 0xff, 0xff, 0xff, 
	0xff, 0xf1, 0x00, 0x3f, 0xff, 0xff, 0xff, 0xff, 
	0xff, 0xff, 0xff, 0xff, 0x20, 0x00, 0x00, 0x00, 
	0x00, 0x00, 0x00, 0x00, 0x00, 0x00, 0x00, 0x00, 
	0x00, 0x00, 0x00, 0x00, 0x00, 0x00, 0x00, 0x00, 
	0x00, 0x00, 0x00, 0x00, 0x1f, 0xff, 0xff, 0xff, 
	0x51, 0x4a, 0xff, 0xff, 0xd0, 0x03, 0xff, 0xff, 
	0xff, 0xff, 0xff, 0xff, 0xff, 0xff, 0xff, 0x50, 
	0x2f, 0xff, 0xff, 0xff, 0xff, 0xff, 0xff, 0xff, 
	0xff, 0xf6, 0x02, 0xff, 0xff, 0xff, 0xff, 0xff, 
	0xff, 0xff, 0xff, 0xff, 0x70, 0x00, 0x00, 0x00, 
	0x00, 0x00, 0x00, 0x00, 0x00, 0x00, 0x00, 0x00, 
	0x00, 0x00, 0x00, 0x00, 0x00, 0x00, 0x00, 0x00, 
	0x00, 0x00, 0x00, 0x00, 0x3f, 0xff, 0xff, 0xff, 
	0x21, 0x47, 0x74, 0x8f, 0x70, 0x02, 0xff, 0xff, 
	0xff, 0xff, 0x58, 0xaf, 0xff, 0xff, 0xff, 0xd0, 
	0x2f, 0xff, 0xff, 0xff, 0xf6, 0x8a, 0xff, 0xff, 
	0xff, 0xff, 0x02, 0xff, 0xff, 0xff, 0xff, 0x67, 
	0x8f, 0xff, 0xff, 0xff, 0xf1, 0x00, 0x00, 0x00, 
	0x00, 0x00, 0x00, 0x00, 0x00, 0x00, 0x00, 0x00, 
	0x00, 0x00, 0x00, 0x00, 0x00, 0x00, 0x00, 0x00, 
	0x00, 0x00, 0x00, 0x00, 0x6f, 0xff, 0xff, 0xff, 
	0xaf, 0xff, 0xf8, 0x00, 0x10, 0x02, 0xff, 0xff, 
	0xff, 0xfd, 0x00, 0x02, 0xff, 0xff, 0xff, 0xf3, 
	0x2f, 0xff, 0xff, 0xff, 0xf0, 0x00, 0x0f, 0xff, 
	0xff, 0xff, 0x42, 0xff, 0xff, 0xff, 0xff, 0x00, 
	0x00, 0xff, 0xff, 0xff, 0xf5, 0x00, 0x00, 0x00, 
	0x00, 0x00, 0x00, 0x00, 0x00, 0x00, 0x00, 0x00, 
	0x00, 0x00, 0x00, 0x00, 0x00, 0x00, 0x00, 0x00, 
	0x00, 0x00, 0x00, 0x00, 0xaf, 0xff, 0xff, 0xff, 
	0xff, 0xff, 0xff, 0xb1, 0x00, 0x02, 0xff, 0xff, 
	0xff, 0xf7, 0x00, 0x02, 0xff, 0xff, 0xff, 0xfa, 
	0x2f, 0xff, 0xff, 0xff, 0x80, 0x00, 0x0f, 0xff, 
	0xff, 0xff, 0xb0, 0xff, 0xff, 0xff, 0xfa, 0x00, 
	0x00, 0xff, 0xff, 0xff, 0xfd, 0x00, 0x00, 0x00, 
	0x00, 0x00, 0x00, 0x00, 0x00, 0x00, 0x00, 0x00, 
	0x00, 0x00, 0x00, 0x00, 0x00, 0x00, 0x00, 0x00, 
	0x00, 0x00, 0x00, 0x00, 0xdf, 0xff, 0xff, 0xff, 
	0xff, 0xff, 0xff, 0xfd, 0x20, 0x02, 0xff, 0xff, 
	0xff, 0xf4, 0x00, 0x02, 0xff, 0xff, 0xff, 0xfa, 
	0x2f, 0xff, 0xff, 0xff, 0x40, 0x00, 0x0f, 0xff, 
	0xff, 0xff, 0xb0, 0xff, 0xff, 0xff, 0xf6, 0x00, 
	0x00, 0xff, 0xff, 0xff, 0xfd, 0x00, 0x00, 0x00, 
	0x00, 0x00, 0x00, 0x00, 0x00, 0x00, 0x00, 0x00, 
	0x00, 0x00, 0x00, 0x00, 0x00, 0x00, 0x00, 0x00, 
	0x00, 0x00, 0x00, 0x00, 0x0a, 0xff, 0xff, 0xff, 
	0xff, 0xff, 0xff, 0xff, 0xf4, 0x02, 0xff, 0xff, 
	0xff, 0xf1, 0x00, 0x02, 0xff, 0xff, 0xff, 0xf5, 
	0x0f, 0xff, 0xff, 0xff, 0x20, 0x00, 0x0f, 0xff, 
	0xff, 0xff, 0x60, 0xff, 0xff, 0xff, 0xf3, 0x00, 
	0x00, 0xff, 0xff, 0xff, 0xf7, 0x00, 0x00, 0x00, 
	0x00, 0x00, 0x00, 0x00, 0x00, 0x00, 0x00, 0x00, 
	0x00, 0x00, 0x00, 0x00, 0x00, 0x00, 0x00, 0x00, 
	0x00, 0x00, 0x00, 0x00, 0x00, 0x6f, 0xff, 0xff, 
	0xff, 0xff, 0xff, 0xff, 0xff, 0x52, 0xff, 0xff, 
	0xff, 0xd0, 0x00, 0x02, 0xff, 0xff, 0xff, 0xf1, 
	0x0f, 0xff, 0xff, 0xff, 0x00, 0x00, 0x0f, 0xff, 
	0xff, 0xff, 0x20, 0xff, 0xff, 0xff, 0xf1, 0x00, 
	0x00, 0xff, 0xff, 0xff, 0xf3, 0x00, 0x00, 0x00, 
	0x00, 0x00, 0x00, 0x00, 0x00, 0x00, 0x00, 0x00, 
	0x00, 0x00, 0x00, 0x00, 0x00, 0x00, 0x00, 0x00, 
	0x00, 0x00, 0x00, 0x00, 0x00, 0x44, 0xff, 0xff, 
	0x7a, 0xff, 0xff, 0xff, 0xff, 0x71, 0xff, 0xff, 
	0xff, 0x70, 0x00, 0x02, 0xff, 0xff, 0xff, 0xd0, 
	0x0f, 0xff, 0xff, 0xf8, 0x00, 0x00, 0x0f, 0xff, 
	0xff, 0xff, 0x00, 0xff, 0xff, 0xff, 0xb0, 0x00, 
	0x00, 0xff, 0xff, 0xff, 0xf1, 0x00, 0x00, 0x00, 
	0x00, 0x00, 0x00, 0x00, 0x00, 0x00, 0x00, 0x00, 
	0x00, 0x00, 0x00, 0x00, 0x00, 0x00, 0x00, 0x00, 
	0x00, 0x00, 0x00, 0x00, 0x04, 0xfd, 0x47, 0x30, 
	0x00, 0xbf, 0xff, 0xff, 0xff, 0x40, 0xff, 0xff, 
	0xff, 0xa0, 0x00, 0x02, 0xff, 0xff, 0xff, 0x60, 
	0x0f, 0xff, 0xff, 0xfd, 0x00, 0x00, 0x0f, 0xff, 
	0xff, 0xf7, 0x00, 0xff, 0xff, 0xff, 0xd1, 0x00, 
	0x00, 0xff, 0xff, 0xff, 0xa0, 0x00, 0x00, 0x00, 
	0x00, 0x00, 0x00, 0x00, 0x00, 0x00, 0x00, 0x00, 
	0x00, 0x00, 0x00, 0x00, 0x00, 0x00, 0x00, 0x00, 
	0x00, 0x00, 0x00, 0x00, 0x1f, 0xff, 0xf4, 0x00, 
	0x00, 0x1f, 0xff, 0xff, 0xff, 0x10, 0xff, 0xff, 
	0xff, 0xf7, 0x00, 0x2b, 0xff, 0xff, 0xff, 0x20, 
	0x0f, 0xff, 0xff, 0xff, 0xa0, 0x02, 0xbf, 0xff, 
	0xff, 0xf4, 0x00, 0xdf, 0xff, 0xff, 0xfa, 0x00, 
	0x1a, 0xff, 0xff, 0xff, 0x40, 0x00, 0x00, 0x00, 
	0x00, 0x00, 0x00, 0x00, 0x00, 0x00, 0x00, 0x00, 
	0x00, 0x00, 0x00, 0x00, 0x00, 0x00, 0x00, 0x00, 
	0x00, 0x00, 0x00, 0x00, 0xbf, 0xff, 0xff, 0x70, 
	0x00, 0x4d, 0xff, 0xff, 0xfd, 0x00, 0xff, 0xff, 
	0xff, 0xff, 0x55, 0xff, 0xff, 0xff, 0xff, 0x00, 
	0x0f, 0xff, 0xff, 0xff, 0xf6, 0x5f, 0xff, 0xff, 
	0xff, 0xf1, 0x00, 0x8f, 0xff, 0xff, 0xff, 0x74, 
	0xff, 0xff, 0xff, 0xff, 0x10, 0x00, 0x00, 0x00, 
	0x00, 0x00, 0x00, 0x00, 0x00, 0x00, 0x00, 0x00, 
	0x00, 0x00, 0x00, 0x00, 0x00, 0x00, 0x00, 0x00, 
	0x00, 0x00, 0x00, 0x06, 0xff, 0xff, 0xff, 0xfa, 
	0x3a, 0xff, 0xff, 0xff, 0xf7, 0x00, 0xff, 0xff, 
	0xff, 0xff, 0xff, 0xff, 0xff, 0xff, 0xf8, 0x00, 
	0x0f, 0xff, 0xff, 0xff, 0xff, 0xff, 0xff, 0xff, 
	0xff, 0xa0, 0x00, 0x8f, 0xff, 0xff, 0xff, 0xff, 
	0xff, 0xff, 0xff, 0xfb, 0x00, 0x00, 0x00, 0x00, 
	0x00, 0x00, 0x00, 0x00, 0x00, 0x00, 0x00, 0x00, 
	0x00, 0x00, 0x00, 0x00, 0x00, 0x00, 0x00, 0x00, 
	0x00, 0x00, 0x00, 0x2f, 0xff, 0xff, 0xff, 0xff, 
	0xff, 0xff, 0xff, 0xff, 0xf4, 0x00, 0xff, 0xff, 
	0xff, 0xff, 0xff, 0xff, 0xff, 0xff, 0xf4, 0x00, 
	0x08, 0xff, 0xff, 0xff, 0xff, 0xff, 0xff, 0xff, 
	0xff, 0x50, 0x00, 0x8f, 0xff, 0xff, 0xff, 0xff, 
	0xff, 0xff, 0xff, 0xf6, 0x00, 0x00, 0x00, 0x00, 
	0x00, 0x00, 0x00, 0x00, 0x00, 0x00, 0x00, 0x00, 
	0x00, 0x00, 0x00, 0x00, 0x00, 0x00, 0x00, 0x00, 
	0x00, 0x00, 0x00, 0x4f, 0xff, 0xff, 0xff, 0xff, 
	0xff, 0xff, 0xff, 0xff, 0xf1, 0x00, 0x2d, 0xff, 
	0xff, 0xff, 0xff, 0xff, 0xff, 0xff, 0xf1, 0x00, 
	0x02, 0xbf, 0xff, 0xff, 0xff, 0xff, 0xff, 0xff, 
	0xff, 0x10, 0x00, 0x1a, 0xff, 0xff, 0xff, 0xff, 
	0xff, 0xff, 0xff, 0xf2, 0x00, 0x00, 0x00, 0x00, 
	0x00, 0x00, 0x00, 0x00, 0x00, 0x00, 0x00, 0x00, 
	0x00, 0x00, 0x00, 0x00, 0x00, 0x00, 0x00, 0x00, 
	0x00, 0x00, 0x00, 0x01, 0x6f, 0xff, 0xff, 0xff, 
	0xff, 0xff, 0xff, 0xff, 0xb0, 0x00, 0x00, 0x7f, 
	0xff, 0xff, 0xff, 0xff, 0xff, 0xff, 0xb0, 0x00, 
	0x00, 0x05, 0xff, 0xff, 0xff, 0xff, 0xff, 0xff, 
	0xfd, 0x00, 0x00, 0x00, 0x4f, 0xff, 0xff, 0xff, 
	0xff, 0xff, 0xff, 0xf0, 0x00, 0x00, 0x00, 0x00, 
	0x00, 0x00, 0x00, 0x00, 0x00, 0x00, 0x00, 0x00, 
	0x00, 0x00, 0x00, 0x00, 0x00, 0x00, 0x00, 0x00, 
	0x00, 0x00, 0x00, 0x00, 0x01, 0x7f, 0xff, 0xff, 
	0xff, 0xff, 0xff, 0xfb, 0x40, 0x00, 0x00, 0x02, 
	0xdf, 0xff, 0xff, 0xff, 0xff, 0xd6, 0x20, 0x00, 
	0x00, 0x00, 0x2b, 0xff, 0xff, 0xff, 0xff, 0xff, 
	0x72, 0x00, 0x00, 0x00, 0x01, 0xaf, 0xff, 0xff, 
	0xff, 0xff, 0xf7, 0x20, 0x00, 0x00, 0x00, 0x00, 
	0x00, 0x00, 0x00, 0x00, 0x00, 0x00, 0x00, 0x00, 
	0x00, 0x00, 0x00, 0x00, 0x00, 0x00, 0x00, 0x00, 
	0x00, 0x00, 0x00, 0x00, 0x00, 0x02, 0x8f, 0xff, 
	0xff, 0xff, 0x84, 0x10, 0x00, 0x00, 0x00, 0x00, 
	0x07, 0xff, 0xff, 0xff, 0x73, 0x00, 0x00, 0x00, 
	0x00, 0x00, 0x00, 0x5f, 0xff, 0xff, 0xf7, 0x30, 
	0x00, 0x00, 0x00, 0x00, 0x00, 0x04, 0xff, 0xff, 
	0xff, 0xa3, 0x00, 0x00, 0x00, 0x00, 0x00, 0x00, 
	0x00, 0x00, 0x00, 0x00, 0x00, 0x00, 0x00, 0x00, 
	0x00, 0x00, 0x00, 0x00, 0x00, 0x00, 0x00, 0x00, 
	0x00, 0x00, 0x00, 0x00, 0x00, 0x00, 0x02, 0x8f, 
	0xd6, 0x20, 0x00, 0x00, 0x00, 0x00, 0x00, 0x00, 
	0x00, 0x2b, 0xfa, 0x30, 0x00, 0x00, 0x00, 0x00, 
	0x00, 0x00, 0x00, 0x02, 0xbf, 0xa4, 0x10, 0x00, 
	0x00, 0x00, 0x00, 0x00, 0x00, 0x00, 0x1a, 0xfa, 
	0x41, 0x00, 0x00, 0x00, 0x00, 0x00, 0x00, 0x00, 
	0x00, 0x00, 0x00, 0x00, 0x00, 0x00, 0x00, 0x00, 
	0x00, 0x00, 0x00, 0x00, 0x00, 0x00, 0x00, 0x00, 
	0x00, 0x00, 0x00, 0x00, 0x00, 0x00, 0x00, 0x01, 
	0x00, 0x00, 0x00, 0x00, 0x00, 0x00, 0x00, 0x00, 
	0x00, 0x00, 0x10, 0x00, 0x00, 0x00, 0x00, 0x00, 
	0x00, 0x00, 0x00, 0x00, 0x01, 0x00, 0x00, 0x00, 
	0x00, 0x00, 0x00, 0x00, 0x00, 0x00, 0x00, 0x10, 
	0x00, 0x00, 0x00, 0x00, 0x00, 0x00, 0x00, 0x00, 
	0x00, 0x00, 0x00, 0x00, 0x00, 0x00, 0x00, 0x00, 
	0x00, 0x00, 0x00, 0x00, 0x00, 0x00, 0x00, 0x00, 
	0x00, 0x00, 0x00, 0x00, 0x00, 0x00, 0x0a, 0x40, 
	0x00, 0x00, 0x00, 0x00, 0x00, 0x00, 0x00, 0x00, 
	0x00, 0x00, 0x00, 0x00, 0x00, 0x00, 0x00, 0x00, 
	0x00, 0x00, 0x00, 0x00, 0x00, 0x00, 0x00, 0x00, 
	0x00, 0x00, 0x00, 0x00, 0x00, 0x00, 0x00, 0x00, 
	0x00, 0x00, 0x02, 0x24, 0x63, 0x00, 0x00, 0x00, 
	0x00, 0x00, 0x00, 0x00, 0x00, 0x00, 0x00, 0x00, 
	0x00, 0x00, 0x00, 0x00, 0x00, 0x00, 0x00, 0x00, 
	0x12, 0x24, 0x45, 0x88, 0x10, 0x00, 0x4f, 0xfa, 
	0x10, 0x00, 0x00, 0x00, 0x00, 0x00, 0x00, 0x00, 
	0x00, 0x01, 0x23, 0x47, 0x85, 0x00, 0x00, 0x00, 
	0x00, 0x00, 0x00, 0x00, 0x00, 0x00, 0x00, 0x00, 
	0x00, 0x00, 0x00, 0x00, 0x00, 0x00, 0x00, 0x03, 
	0x47, 0x8f, 0xff, 0xff, 0xff, 0xb2, 0x00, 0x00, 
	0x00, 0x00, 0x00, 0x00, 0x00, 0x00, 0x00, 0x00, 
	0x00, 0x00, 0x00, 0x00, 0x00, 0x00, 0x00, 0x01, 
	0xff, 0xff, 0xff, 0xff, 0x20, 0x01, 0xdf, 0xff, 
	0xd4, 0x00, 0x00, 0x00, 0x00, 0x00, 0x00, 0x00, 
	0x4b, 0xff, 0xff, 0xff, 0xf8, 0x00, 0x00, 0x00, 
	0x00, 0x00, 0x00, 0x00, 0x00, 0x02, 0x10, 0x00, 
	0x00, 0x00, 0x00, 0x00, 0x00, 0x00, 0x00, 0x3f, 
	0xff, 0xff, 0xff, 0xff, 0xff, 0xff, 0x81, 0x00, 
	0x00, 0x00, 0x00, 0x00, 0x00, 0x00, 0x00, 0x00, 
	0x00, 0x00, 0x00, 0x00, 0x00, 0x00, 0x00, 0x00, 
	0xff, 0xff, 0xff, 0xff, 0x40, 0x07, 0xff, 0xff, 
	0xff, 0x80, 0x00, 0x00, 0x84, 0x21, 0x00, 0x00, 
	0x4f, 0xff, 0xff, 0xff, 0xf8, 0x00, 0x00, 0x00, 
	0x00, 0x00, 0x00, 0x00, 0x00, 0xaf, 0xff, 0xb8, 
	0x54, 0x21, 0x00, 0x00, 0x00, 0x00, 0x00, 0xbf, 
	0xff, 0xff, 0xff, 0xff, 0xff, 0xff, 0xff, 0x60, 
	0x00, 0x00, 0x00, 0x00, 0x00, 0x00, 0x00, 0x00, 
	0x00, 0x00, 0x00, 0x00, 0x00, 0x00, 0x00, 0x00, 
	0xbf, 0xff, 0xff, 0xff, 0x40, 0x2f, 0xff, 0xff, 
	0xff, 0xfd, 0x20, 0x02, 0xff, 0xff, 0xb7, 0x42, 
	0x4f, 0xff, 0xff, 0xff, 0xf8, 0x00, 0x00, 0x00, 
	0x00, 0x00, 0x00, 0x00, 0x06, 0xff, 0xff, 0xff, 
	0xff, 0xff, 0xa0, 0x00, 0x00, 0x00, 0x04, 0xff, 
	0xff, 0xff, 0xff, 0xff, 0xff, 0xff, 0xff, 0xf7, 
	0x00, 0x00, 0x00, 0x00, 0x00, 0x00, 0x00, 0x00, 
	0x00, 0x00, 0x00, 0x00, 0x00, 0x00, 0x00, 0x00, 
	0x8f, 0xff, 0xff, 0xff, 0x60, 0xbf, 0xff, 0xff, 
	0xff, 0xfd, 0x10, 0x02, 0xff, 0xff, 0xff, 0xff, 
	0x7f, 0xff, 0xff, 0xff, 0xf8, 0x00, 0x00, 0x00, 
	0x00, 0x00, 0x00, 0x00, 0x6f, 0xff, 0xff, 0xff, 
	0xff, 0xff, 0xfa, 0x00, 0x00, 0x00, 0x1f, 0xff, 
	0xff, 0xff, 0xff, 0xff, 0xff, 0xff, 0xff, 0xf1, 
	0x00, 0x00, 0x00, 0x00, 0x00, 0x00, 0x00, 0x00, 
	0x00, 0x00, 0x00, 0x00, 0x00, 0x00, 0x00, 0x00, 
	0x6f, 0xff, 0xff, 0xff, 0x84, 0xff, 0xff, 0xff, 
	0xff, 0xd1, 0x00, 0x02, 0xff, 0xff, 0xff, 0xff, 
	0x2f, 0xff, 0xff, 0xff, 0xf8, 0x00, 0x00, 0x00, 
	0x00, 0x00, 0x00, 0x05, 0xff, 0xff, 0xff, 0xff, 
	0xff, 0xff, 0xff, 0xa0, 0x00, 0x00, 0x8f, 0xff, 
	0xff, 0xff, 0xff, 0xbd, 0xff, 0xff, 0xff, 0x60, 
	0x00, 0x00, 0x00, 0x00, 0x00, 0x00, 0x00, 0x00, 
	0x00, 0x00, 0x00, 0x00, 0x00, 0x00, 0x00, 0x00, 
	0x4f, 0xff, 0xff, 0xff, 0xbf, 0xff, 0xff, 0xff, 
	0xff, 0x30, 0x00, 0x02, 0xff, 0xff, 0xff, 0xff, 
	0x0f, 0xff, 0xff, 0xff, 0xf8, 0x00, 0x00, 0x00, 
	0x00, 0x00, 0x00, 0x3f, 0xff, 0xff, 0xff, 0xff, 
	0xff, 0xff, 0xff, 0xfa, 0x00, 0x02, 0xff, 0xff, 
	0xff, 0xff, 0xff, 0x11, 0x8f, 0xff, 0xff, 0x10, 
	0x00, 0x00, 0x00, 0x00, 0x00, 0x00, 0x00, 0x00, 
	0x00, 0x00, 0x00, 0x00, 0x00, 0x00, 0x00, 0x00, 
	0x2f, 0xff, 0xff, 0xff, 0xff, 0xff, 0xff, 0xff, 
	0xf3, 0x00, 0x00, 0x04, 0xff, 0xff, 0xff, 0xfb, 
	0x08, 0xff, 0xff, 0xff, 0xf8, 0x00, 0x00, 0x00, 
	0x00, 0x00, 0x03, 0xff, 0xff, 0xff, 0xff, 0xff, 
	0xff, 0xff, 0xff, 0xff, 0xa0, 0x0b, 0xff, 0xff, 
	0xff, 0xff, 0xfb, 0x20, 0x02, 0xdf, 0xf6, 0x00, 
	0x00, 0x00, 0x00, 0x00, 0x00, 0x00, 0x00, 0x00, 
	0x00, 0x00, 0x00, 0x00, 0x00, 0x00, 0x00, 0x00, 
	0x2f, 0xff, 0xff, 0xff, 0xff, 0xff, 0xff, 0xff, 
	0x30, 0x00, 0x00, 0x04, 0xff, 0xff, 0xff, 0xf8, 
	0x06, 0xff, 0xff, 0xff, 0xf8, 0x00, 0x00, 0x00, 
	0x00, 0x00, 0x3f, 0xff, 0xff, 0xff, 0xff, 0xff, 
	0xff, 0xff, 0xff, 0xff, 0xfa, 0x1b, 0xff, 0xff, 
	0xff, 0xff, 0xff, 0xf8, 0x20, 0x07, 0xd0, 0x00, 
	0x00, 0x00, 0x00, 0x00, 0x00, 0x00, 0x00, 0x00, 
	0x00, 0x00, 0x00, 0x00, 0x00, 0x00, 0x00, 0x00, 
	0x0f, 0xff, 0xff, 0xff, 0xff, 0xff, 0xff, 0xf6, 
	0x00, 0x00, 0x00, 0x04, 0xff, 0xff, 0xff, 0xf4, 
	0x04, 0xff, 0xff, 0xff, 0xf8, 0x00, 0x00, 0x00, 
	0x00, 0x00, 0xaf, 0xff, 0xff, 0xff, 0xff, 0xb5, 
	0x2b, 0xff, 0xff, 0xff, 0xff, 0x00, 0x3b, 0xff, 
	0xff, 0xff, 0xff, 0xff, 0xfb, 0x30, 0x10, 0x00, 
	0x00, 0x00, 0x00, 0x00, 0x00, 0x00, 0x00, 0x00, 
	0x00, 0x00, 0x00, 0x00, 0x00, 0x00, 0x00, 0x00, 
	0x0d, 0xff, 0xff, 0xff, 0xff, 0xff, 0xff, 0xb0, 
	0x00, 0x00, 0x00, 0x04, 0xff, 0xff, 0xff, 0xf2, 
	0x02, 0xff, 0xff, 0xff, 0xf8, 0x00, 0x00, 0x00, 
	0x00, 0x00, 0x8f, 0xff, 0xff, 0xff, 0x61, 0x00, 
	0x03, 0xff, 0xff, 0xff, 0xff, 0x00, 0x00, 0x3b, 
	0xff, 0xff, 0xff, 0xff, 0xff, 0xfb, 0x30, 0x00, 
	0x00, 0x00, 0x00, 0x00, 0x00, 0x00, 0x00, 0x00, 
	0x00, 0x00, 0x00, 0x00, 0x00, 0x00, 0x00, 0x00, 
	0x08, 0xff, 0xff, 0xff, 0xff, 0xff, 0xff, 0xfa, 
	0x00, 0x00, 0x00, 0x06, 0xff, 0xff, 0xff, 0xf1, 
	0x02, 0xff, 0xff, 0xff, 0xf8, 0x00, 0x00, 0x00, 
	0x00, 0x21, 0x4f, 0xff, 0xff, 0xff, 0x20, 0x00, 
	0x00, 0xbf, 0xff, 0xff, 0xfa, 0x00, 0x00, 0x00, 
	0x3b, 0xff, 0xff, 0xff, 0xff, 0xff, 0xfb, 0x40, 
	0x00, 0x00, 0x00, 0x00, 0x00, 0x00, 0x00, 0x00, 
	0x00, 0x00, 0x00, 0x00, 0x00, 0x00, 0x00, 0x00, 
	0x07, 0xff, 0xff, 0xff, 0xff, 0xff, 0xff, 0xff, 
	0xd1, 0x00, 0x00, 0x08, 0xff, 0xff, 0xff, 0xf0, 
	0x00, 0xff, 0xff, 0xff, 0xf8, 0x00, 0x00, 0x03, 
	0x7d, 0xf2, 0x2f, 0xff, 0xff, 0xff, 0x20, 0x00, 
	0x00, 0x3f, 0xff, 0xff, 0xf8, 0x00, 0x04, 0x71, 
	0x00, 0x3b, 0xff, 0xff, 0xff, 0xff, 0xff, 0xfd, 
	0x40, 0x00, 0x00, 0x00, 0x00, 0x00, 0x00, 0x00, 
	0x00, 0x00, 0x00, 0x00, 0x00, 0x00, 0x00, 0x00, 
	0x04, 0xff, 0xff, 0xff, 0xff, 0xff, 0xff, 0xff, 
	0xff, 0x30, 0x00, 0x08, 0xff, 0xff, 0xff, 0xa0, 
	0x00, 0xdf, 0xff, 0xff, 0xf8, 0x01, 0x4a, 0xff, 
	0xff, 0xf2, 0x1f, 0xff, 0xff, 0xff, 0x40, 0x00, 
	0x00, 0x3f, 0xff, 0xff, 0xf6, 0x00, 0x0d, 0xff, 
	0x50, 0x00, 0x3b, 0xff, 0xff, 0xff, 0xff, 0xff, 
	0x80, 0x00, 0x00, 0x00, 0x00, 0x00, 0x00, 0x00, 
	0x00, 0x00, 0x00, 0x00, 0x00, 0x00, 0x00, 0x00, 
	0x03, 0xff, 0xff, 0xff, 0xff, 0xff, 0xff, 0xff, 
	0xff, 0xf6, 0x00, 0x08, 0xff, 0xff, 0xff, 0x60, 
	0x00, 0x8f, 0xff, 0xff, 0xfd, 0xbf, 0xff, 0xff, 
	0xff, 0xf2, 0x0d, 0xff, 0xff, 0xff, 0x40, 0x00, 
	0x03, 0xff, 0xff, 0xff, 0xf4, 0x00, 0x6f, 0xff, 
	0xfd, 0x40, 0x04, 0xff, 0xff, 0xff, 0xff, 0xff, 
	0x20, 0x00, 0x00, 0x00, 0x00, 0x00, 0x00, 0x00, 
	0x00, 0x00, 0x00, 0x00, 0x00, 0x00, 0x00, 0x00, 
	0x02, 0xff, 0xff, 0xff, 0xfd, 0xff, 0xff, 0xff, 
	0xff, 0xff, 0x80, 0x0a, 0xff, 0xff, 0xff, 0x40, 
	0x00, 0x5f, 0xff, 0xff, 0xff, 0xff, 0xff, 0xff, 
	0xff, 0xf2, 0x08, 0xff, 0xff, 0xff, 0xfa, 0x40, 
	0x3f, 0xff, 0xff, 0xff, 0xf4, 0x02, 0xff, 0xff, 
	0xff, 0xfb, 0x4f, 0xff, 0xff, 0xff, 0xff, 0xf8, 
	0x00, 0x00, 0x00, 0x00, 0x00, 0x00, 0x00, 0x00, 
	0x00, 0x00, 0x00, 0x00, 0x00, 0x00, 0x00, 0x00, 
	0x00, 0xff, 0xff, 0xff, 0xf8, 0x3f, 0xff, 0xff, 
	0xff, 0xff, 0xfb, 0x0f, 0xff, 0xff, 0xff, 0x20, 
	0x00, 0x4f, 0xff, 0xff, 0xff, 0xff, 0xff, 0xff, 
	0xff, 0xf2, 0x04, 0xff, 0xff, 0xff, 0xff, 0xff, 
	0xff, 0xff, 0xff, 0xff, 0xf2, 0x0a, 0xff, 0xff, 
	0xff, 0xff, 0xff, 0xff, 0xff, 0xff, 0xff, 0xf2, 
	0x00, 0x00, 0x00, 0x00, 0x00, 0x00, 0x00, 0x00, 
	0x00, 0x00, 0x00, 0x00, 0x00, 0x00, 0x00, 0x00, 
	0x00, 0xff, 0xff, 0xff, 0xfa, 0x04, 0xff, 0xff, 
	0xff, 0xff, 0xd2, 0x0f, 0xff, 0xff, 0xff, 0x00, 
	0x00, 0x2f, 0xff, 0xff, 0xff, 0xff, 0xff, 0xff, 
	0xff, 0xf2, 0x02, 0xff, 0xff, 0xff, 0xff, 0xff, 
	0xff, 0xff, 0xff, 0xff, 0xf1, 0x1f, 0xff, 0xff, 
	0xff, 0xff, 0xff, 0xff, 0xff, 0xff, 0xff, 0x80, 
	0x00, 0x00, 0x00, 0x00, 0x00, 0x00, 0x00, 0x00, 
	0x00, 0x00, 0x00, 0x00, 0x00, 0x00, 0x00, 0x00, 
	0x00, 0x8f, 0xff, 0xff, 0xff, 0x00, 0x6f, 0xff, 
	0xff, 0xfb, 0x10, 0x0f, 0xff, 0xff, 0xfd, 0x00, 
	0x00, 0x1f, 0xff, 0xff, 0xff, 0xff, 0xff, 0xff, 
	0xff, 0xf2, 0x01, 0xff, 0xff, 0xff, 0xff, 0xff, 
	0xff, 0xff, 0xff, 0xff, 0xf0, 0x01, 0xbf, 0xff, 
	0xff, 0xff, 0xff, 0xff, 0xff, 0xff, 0xff, 0x20, 
	0x00, 0x00, 0x00, 0x00, 0x00, 0x00, 0x00, 0x00, 
	0x00, 0x00, 0x00, 0x00, 0x00, 0x00, 0x00, 0x00, 
	0x00, 0x7f, 0xff, 0xff, 0xff, 0x00, 0x06, 0xff, 
	0xff, 0xa0, 0x00, 0x0f, 0xff, 0xff, 0xf8, 0x00, 
	0x00, 0x0f, 0xff, 0xff, 0xff, 0xff, 0xff, 0xff, 
	0xff, 0xf0, 0x00, 0xbf, 0xff, 0xff, 0xff, 0xff, 
	0xff, 0xff, 0xff, 0xfd, 0x60, 0x00, 0x06, 0xff, 
	0xff, 0xff, 0xff, 0xff, 0xff, 0xff, 0xf8, 0x00, 
	0x00, 0x00, 0x00, 0x00, 0x00, 0x00, 0x00, 0x00, 
	0x00, 0x00, 0x00, 0x00, 0x00, 0x00, 0x00, 0x00, 
	0x00, 0x4f, 0xff, 0xff, 0xff, 0x00, 0x00, 0xaf, 
	0xf6, 0x00, 0x00, 0x2f, 0xff, 0xff, 0xf4, 0x00, 
	0x00, 0x0b, 0xff, 0xff, 0xff, 0xff, 0xff, 0xff, 
	0xff, 0xf0, 0x00, 0x02, 0x6f, 0xff, 0xff, 0xff, 
	0xff, 0xff, 0xfb, 0x40, 0x00, 0x00, 0x00, 0x2d, 
	0xff, 0xff, 0xff, 0xff, 0xff, 0xff, 0xf2, 0x00, 
	0x00, 0x00, 0x00, 0x00, 0x00, 0x00, 0x00, 0x00, 
	0x00, 0x00, 0x00, 0x00, 0x00, 0x00, 0x00, 0x00, 
	0x00, 0x4f, 0xfb, 0x88, 0x64, 0x00, 0x00, 0x0a, 
	0x40, 0x00, 0x00, 0x18, 0x85, 0x44, 0x41, 0x00, 
	0x00, 0x08, 0xff, 0xff, 0xb8, 0x84, 0x44, 0x22, 
	0x10, 0x00, 0x00, 0x00, 0x00, 0x4b, 0xff, 0xff, 
	0xff, 0xf8, 0x30, 0x00, 0x00, 0x00, 0x00, 0x01, 
	0x8f, 0xff, 0xff, 0xfd, 0x88, 0x64, 0x40, 0x00, 
	0x00, 0x00, 0x00, 0x00, 0x00, 0x00, 0x00, 0x00, 
	0x00, 0x00, 0x00, 0x00, 0x00, 0x00, 0x00, 0x00, 
	0x00, 0x00, 0x00, 0x00, 0x00, 0x00, 0x00, 0x00, 
	0x00, 0x00, 0x00, 0x00, 0x00, 0x00, 0x00, 0x00, 
	0x00, 0x01, 0x21, 0x00, 0x00, 0x00, 0x00, 0x00, 
	0x00, 0x00, 0x00, 0x00, 0x00, 0x00, 0x26, 0xdf, 
	0xf6, 0x10, 0x00, 0x00, 0x00, 0x00, 0x00, 0x00, 
	0x04, 0x22, 0x20, 0x00, 0x00, 0x00, 0x00, 0x00, 
	0x00, 0x00, 0x00, 0x00, 0x00, 0x00, 0x00, 0x00, 
	0x00, 0x00, 0x00, 0x00, 0x00, 0x00, 0x00, 0x00, 
	0x00, 0x00, 0x00, 0x00, 0x00, 0x00, 0x00, 0x00, 
	0x00, 0x00, 0x00, 0x00, 0x00, 0x00, 0x00, 0x00, 
	0x00, 0x00, 0x00, 0x00, 0x00, 0x00, 0x00, 0x00, 
	0x00, 0x00, 0x00, 0x00, 0x00, 0x00, 0x00, 0x02, 
	0x10, 0x00, 0x00, 0x00, 0x00, 0x00, 0x00, 0x00, 
	0x00, 0x00, 0x00, 0x00, 0x00, 0x00, 0x00, 0x00, 
	0x00, 0x00, 0x00, 0x00, 0x00, 0x00, 0x00, 0x00, 
	0x00, 0x00, 0x00, 0x00, 0x00, 0x00, 0x00, 0x00, 
	0x00, 0x00, 0x00, 0x00, 0x00, 0x00, 0x00, 0x00, 
	0x00, 0x00, 0x00, 0x00, 0x00, 0x00, 0x00, 0x00, 
	0x00, 0x00, 0x00, 0x00, 0x00, 0x00, 0x00, 0x00, 
	0x00, 0x00, 0x00, 0x00, 0x00, 0x00, 0x00, 0x00, 
	0x00, 0x00, 0x00, 0x00, 0x00, 0x00, 0x00, 0x00, 
	0x00, 0x00, 0x00, 0x00, 0x00, 0x00, 0x00, 0x00, 
	0x00, 0x00, 0x00, 0x00, 0x00, 0x00, 0x00, 0x00, 
	0x00, 0x00, 0x00, 0x00, 0x00, 0x00, 0x00, 0x00, 
	0x00, 0x00, 0x00, 0x00, 0x00, 0x00, 0x00, 0x00, 
	0x00, 0x00, 0x00, 0x00, 0x00, 0x00, 0x00, 0x00, 
	0x00, 0x00, 0x00, 0x00, 0x00, 0x00, 0x00, 0x00, 
	0x00, 0x00, 0x00, 0x00, 0x00, 0x00, 0x00, 0x00, 
	0x00, 0x00, 0x00, 0x00, 0x00, 0x00, 0x00, 0x00, 
	0x00, 0x00, 0x00, 0x00, 0x00, 0x00, 0x00, 0x00, 
	0x00, 0x00, 0x00, 0x00, 0x00, 0x00, 0x00, 0x00, 
	0x00, 0x00, 0x00, 0x00, 0x00, 0x00, 0x00, 0x00, 
	0x00, 0x00, 0x00, 0x00, 0x00, 0x00, 0x00, 0x00, 
	0x00, 0x00, 0x00, 0x00, 0x00, 0x00, 0x00, 0x00, 
	0x00, 0x00, 0x00, 0x00, 0x00, 0x00, 0x00, 0x00, 
	0x00, 0x00, 0x00, 0x00, 0x00, 0x00, 0x00, 0x00, 
	0x00, 0x00, 0x00, 0x00, 0x00, 0x00, 0x00, 0x00, 
	0x00, 0x00, 0x00, 0x00, 0x00, 0x00, 0x00, 0x00, 
	0x00, 0x00, 0x00, 0x00, 0x00, 0x00, 0x00, 0x00, 
	0x00, 0x00, 0x00, 0x00, 0x00, 0x00, 0x00, 0x00, 
	0x00, 0x00, 0x00, 0x00, 0x00, 0x00, 0x00, 0x00, 
	0x00, 0x00, 0x00, 0x00, 0x00, 0x00, 0x00, 0x00, 
	0x00, 0x00, 0x00, 0x00, 0x00, 0x00, 0x00, 0x00, 
	0x00, 0x00, 0x00, 0x00, 0x00, 0x00, 0x00, 0x00, 
	0x00, 0x00, 0x00, 0x00, 0x00, 0x00, 0x00, 0x00, 
	0x00, 0x00, 0x00, 0x00, 0x00, 0x00, 0x00, 0x00, 
	0x00, 0x00, 0x00, 0x00, 0x00, 0x00, 0x00, 0x00, 
	0x00, 0x00, 0x00, 0x00, 0x00, 0x00, 0x00, 0x00, 
	0x00, 0x00, 0x00, 0x00, 0x00, 0x00, 0x00, 0x00, 
	0x00, 0x00, 0x00, 0x00, 0x00, 0x00, 0x00, 0x00, 
	0x00, 0x00, 0x00, 0x00, 0x00, 0x00, 0x00, 0x00, 
	0x00, 0x00, 0x00, 0x00, 0x00, 0x00, 0x00, 0x00, 
	0x00, 0x00, 0x00, 0x00, 0x00, 0x00, 0x00, 0x00, 
	0x00, 0x00, 0x00, 0x00, 0x00, 0x00, 0x00, 0x00, 
	0x00, 0x00, 0x00, 0x00, 0x00, 0x00, 0x00, 0x00, 
	0x00, 0x00, 0x00, 0x00, 0x00, 0x00, 0x00, 0x00, 
	0x00, 0x00, 0x00, 0x00, 0x00, 0x00, 0x00, 0x00, 
	0x00, 0x00, 0x00, 0x00, 0x00, 0x00, 0x00, 0x00, 
	0x00, 0x00, 0x00, 0x00, 0x00, 0x00, 0x00, 0x00, 
	0x00, 0x00, 0x00, 0x00, 0x00, 0x00, 0x00, 0x00, 
	0x00, 0x00, 0x00, 0x00, 0x00, 0x00, 0x00, 0x00, 
	0x00, 0x00, 0x00, 0x00, 0x00, 0x00, 0x00, 0x00, 
	0x00, 0x00, 0x00, 0x00, 0x00, 0x00, 0x00, 0x00, 
	0x00, 0x00, 0x00, 0x00, 0x00, 0x00, 0x00, 0x00, 
	0x00, 0x00, 0x00, 0x00, 0x00, 0x00, 0x00, 0x00, 
	0x00, 0x00, 0x00, 0x00, 0x00, 0x00, 0x00, 0x00, 
	0x00, 0x00, 0x00, 0x00, 0x00, 0x00, 0x00, 0x00, 
	0x00, 0x00, 0x00, 0x00, 0x00, 0x00, 0x00, 0x00, 
	0x00, 0x00, 0x00, 0x00, 0x00, 0x00, 0x00, 0x00, 
	0x00, 0x00, 0x00, 0x00, 0x00, 0x00, 0x00, 0x00, 
	0x00, 0x00, 0x00, 0x00, 0x00, 0x00, 0x00, 0x00,
	
};

Vtx heavy_weight_BigWeight_mesh_layer_1_vtx_cull[8] = {
	{{{-278, 0, 374}, 0, {-16, -16}, {0x0, 0x0, 0x0, 0x0}}},
	{{{-278, 480, 374}, 0, {-16, -16}, {0x0, 0x0, 0x0, 0x0}}},
	{{{-278, 480, -374}, 0, {-16, -16}, {0x0, 0x0, 0x0, 0x0}}},
	{{{-278, 0, -374}, 0, {-16, -16}, {0x0, 0x0, 0x0, 0x0}}},
	{{{278, 0, 374}, 0, {-16, -16}, {0x0, 0x0, 0x0, 0x0}}},
	{{{278, 480, 374}, 0, {-16, -16}, {0x0, 0x0, 0x0, 0x0}}},
	{{{278, 480, -374}, 0, {-16, -16}, {0x0, 0x0, 0x0, 0x0}}},
	{{{278, 0, -374}, 0, {-16, -16}, {0x0, 0x0, 0x0, 0x0}}},
};

Vtx heavy_weight_BigWeight_mesh_layer_1_vtx_0[16] = {
	{{{-278, 0, -374}, 0, {-289, 2716}, {0x0, 0x0, 0x0, 0x39}}},
	{{{-278, 0, 374}, 0, {4353, 2716}, {0x0, 0x0, 0x0, 0x39}}},
	{{{-252, 480, 265}, 0, {3675, -696}, {0x9, 0x6, 0x1F, 0x39}}},
	{{{-252, 480, -265}, 0, {389, -696}, {0x9, 0x6, 0x1F, 0x39}}},
	{{{278, 0, -374}, 0, {4353, 2716}, {0x0, 0x0, 0x0, 0x39}}},
	{{{252, 480, -265}, 0, {3675, -696}, {0x9, 0x6, 0x1F, 0x39}}},
	{{{252, 480, 265}, 0, {389, -696}, {0x9, 0x6, 0x1F, 0x39}}},
	{{{278, 0, 374}, 0, {-289, 2716}, {0x0, 0x0, 0x0, 0x39}}},
	{{{-278, 0, -374}, 0, {4720, -304}, {0x0, 0x0, 0x0, 0x39}}},
	{{{-252, 480, -265}, 0, {4720, -304}, {0x9, 0x6, 0x1F, 0x39}}},
	{{{252, 480, -265}, 0, {4720, -304}, {0x9, 0x6, 0x1F, 0x39}}},
	{{{-252, 480, 265}, 0, {4720, -304}, {0x9, 0x6, 0x1F, 0x39}}},
	{{{252, 480, 265}, 0, {4720, -304}, {0x9, 0x6, 0x1F, 0x39}}},
	{{{278, 0, 374}, 0, {4720, -304}, {0x0, 0x0, 0x0, 0x39}}},
	{{{-278, 0, 374}, 0, {4720, -304}, {0x0, 0x0, 0x0, 0x39}}},
	{{{278, 0, -374}, 0, {4720, -304}, {0x0, 0x0, 0x0, 0x39}}},
};

Gfx heavy_weight_BigWeight_mesh_layer_1_tri_0[] = {
	gsSPVertex(heavy_weight_BigWeight_mesh_layer_1_vtx_0 + 0, 16, 0),
	gsSP2Triangles(0, 1, 2, 0, 0, 2, 3, 0),
	gsSP2Triangles(4, 5, 6, 0, 4, 6, 7, 0),
	gsSP2Triangles(8, 9, 10, 0, 10, 9, 11, 0),
	gsSP2Triangles(10, 11, 12, 0, 13, 12, 11, 0),
	gsSP2Triangles(13, 11, 14, 0, 8, 13, 14, 0),
	gsSP2Triangles(8, 15, 13, 0, 8, 10, 15, 0),
	gsSPEndDisplayList(),
};


Gfx mat_heavy_weight_BigWeight[] = {
	gsDPPipeSync(),
	gsDPSetCombineLERP(TEXEL0, SHADE, TEXEL0, SHADE, 0, 0, 0, ENVIRONMENT, TEXEL0, SHADE, TEXEL0, SHADE, 0, 0, 0, ENVIRONMENT),
	gsSPGeometryMode(G_LIGHTING, 0),
	gsSPTexture(65535, 65535, 0, 0, 1),
	gsDPTileSync(),
	gsDPSetTextureImage(G_IM_FMT_I, G_IM_SIZ_16b, 1, heavy_weight__50tons_i4),
	gsDPSetTile(G_IM_FMT_I, G_IM_SIZ_16b, 0, 0, 7, 0, G_TX_CLAMP | G_TX_NOMIRROR, 6, 0, G_TX_CLAMP | G_TX_NOMIRROR, 7, 0),
	gsDPLoadSync(),
	gsDPLoadBlock(7, 0, 0, 2047, 256),
	gsDPPipeSync(),
	gsDPSetTile(G_IM_FMT_I, G_IM_SIZ_4b, 8, 0, 0, 0, G_TX_CLAMP | G_TX_NOMIRROR, 6, 0, G_TX_CLAMP | G_TX_NOMIRROR, 7, 0),
	gsDPSetTileSize(0, 0, 0, 508, 252),
	gsSPEndDisplayList(),
};

Gfx mat_revert_heavy_weight_BigWeight[] = {
	gsDPPipeSync(),
	gsSPGeometryMode(0, G_LIGHTING),
	gsSPEndDisplayList(),
};

Gfx heavy_weight_BigWeight_mesh_layer_1[] = {
	gsSPClearGeometryMode(G_LIGHTING),
	gsSPVertex(heavy_weight_BigWeight_mesh_layer_1_vtx_cull + 0, 8, 0),
	gsSPSetGeometryMode(G_LIGHTING),
	gsSPCullDisplayList(0, 7),
	gsSPDisplayList(mat_heavy_weight_BigWeight),
	gsSPDisplayList(heavy_weight_BigWeight_mesh_layer_1_tri_0),
	gsSPDisplayList(mat_revert_heavy_weight_BigWeight),
	gsSPEndDisplayList(),
};

Gfx heavy_weight_material_revert_render_settings[] = {
	gsDPPipeSync(),
	gsSPSetGeometryMode(G_LIGHTING),
	gsSPClearGeometryMode(G_TEXTURE_GEN),
	gsDPSetCombineLERP(0, 0, 0, SHADE, 0, 0, 0, ENVIRONMENT, 0, 0, 0, SHADE, 0, 0, 0, ENVIRONMENT),
	gsSPTexture(65535, 65535, 0, 0, 0),
	gsDPSetEnvColor(255, 255, 255, 255),
	gsDPSetAlphaCompare(G_AC_NONE),
	gsSPEndDisplayList(),
};

